unsigned char _home_ee2405_ee2405_mbed07_model_model_quantized_tflite[] = {
  0x20, 0x00, 0x00, 0x00, 0x54, 0x46, 0x4c, 0x33, 0x00, 0x00, 0x00, 0x00,
  0x00, 0x00, 0x12, 0x00, 0x1c, 0x00, 0x04, 0x00, 0x08, 0x00, 0x0c, 0x00,
  0x10, 0x00, 0x14, 0x00, 0x00, 0x00, 0x18, 0x00, 0x12, 0x00, 0x00, 0x00,
  0x03, 0x00, 0x00, 0x00, 0xf0, 0x1a, 0x00, 0x00, 0x20, 0x13, 0x00, 0x00,
  0x08, 0x13, 0x00, 0x00, 0x34, 0x00, 0x00, 0x00, 0x04, 0x00, 0x00, 0x00,
  0x01, 0x00, 0x00, 0x00, 0x04, 0x00, 0x00, 0x00, 0xc0, 0xe5, 0xff, 0xff,
  0x08, 0x00, 0x00, 0x00, 0x11, 0x00, 0x00, 0x00, 0x13, 0x00, 0x00, 0x00,
  0x6d, 0x69, 0x6e, 0x5f, 0x72, 0x75, 0x6e, 0x74, 0x69, 0x6d, 0x65, 0x5f,
  0x76, 0x65, 0x72, 0x73, 0x69, 0x6f, 0x6e, 0x00, 0x12, 0x00, 0x00, 0x00,
  0xc8, 0x12, 0x00, 0x00, 0x78, 0x12, 0x00, 0x00, 0xa8, 0x11, 0x00, 0x00,
  0x8c, 0x11, 0x00, 0x00, 0x3c, 0x11, 0x00, 0x00, 0x0c, 0x11, 0x00, 0x00,
  0xfc, 0x09, 0x00, 0x00, 0xf4, 0x09, 0x00, 0x00, 0xec, 0x09, 0x00, 0x00,
  0xe4, 0x09, 0x00, 0x00, 0xdc, 0x09, 0x00, 0x00, 0xd4, 0x09, 0x00, 0x00,
  0xcc, 0x09, 0x00, 0x00, 0xbc, 0x01, 0x00, 0x00, 0x2c, 0x00, 0x00, 0x00,
  0x24, 0x00, 0x00, 0x00, 0x1c, 0x00, 0x00, 0x00, 0x04, 0x00, 0x00, 0x00,
  0x06, 0xed, 0xff, 0xff, 0x04, 0x00, 0x00, 0x00, 0x05, 0x00, 0x00, 0x00,
  0x31, 0x2e, 0x35, 0x2e, 0x30, 0x00, 0x00, 0x00, 0xd4, 0xe5, 0xff, 0xff,
  0xd8, 0xe5, 0xff, 0xff, 0x22, 0xed, 0xff, 0xff, 0x04, 0x00, 0x00, 0x00,
  0x80, 0x01, 0x00, 0x00, 0xcb, 0xfb, 0x5f, 0x3e, 0x0f, 0x17, 0x2b, 0x3f,
  0x36, 0x82, 0xc4, 0x3e, 0xbe, 0x18, 0x87, 0x3e, 0xc6, 0xa1, 0xb7, 0x3c,
  0x2f, 0x79, 0xc7, 0x3d, 0x97, 0xbc, 0x22, 0x3c, 0x35, 0x58, 0x0c, 0xbe,
  0x7e, 0xf0, 0x38, 0xbe, 0xe8, 0x38, 0x17, 0xbe, 0xc2, 0x02, 0x74, 0xbe,
  0x9f, 0x15, 0xa1, 0xbe, 0x48, 0x59, 0x87, 0xbe, 0x44, 0x58, 0x88, 0xbc,
  0xea, 0x0a, 0xec, 0x3d, 0xc8, 0xcf, 0x95, 0x3e, 0x6b, 0xdd, 0x56, 0x3d,
  0xb9, 0x45, 0x69, 0xbe, 0xc8, 0xaf, 0xe5, 0xbd, 0x5d, 0xf4, 0xad, 0x3e,
  0xda, 0x22, 0x96, 0xbe, 0x8d, 0xe5, 0xa8, 0xbe, 0x84, 0xb4, 0x4b, 0xbd,
  0x7f, 0xb3, 0xf7, 0x3d, 0x9a, 0x69, 0x1a, 0x3e, 0x18, 0x86, 0x12, 0x3e,
  0x99, 0xb1, 0x87, 0x3e, 0xfe, 0x30, 0x16, 0x3a, 0xc7, 0x6d, 0x0b, 0x3e,
  0x36, 0x6d, 0x93, 0xbd, 0x89, 0xde, 0x56, 0x3d, 0xef, 0x94, 0x3b, 0xbc,
  0xc7, 0x31, 0x9a, 0xbd, 0xdf, 0x5c, 0x83, 0x3e, 0x79, 0xfe, 0x89, 0xbb,
  0xbc, 0xc8, 0xa7, 0x3e, 0x1c, 0x01, 0x8c, 0xbe, 0x2d, 0x3e, 0xcf, 0x3d,
  0x85, 0xe5, 0x47, 0x3e, 0x94, 0x33, 0x54, 0x3e, 0x83, 0xe0, 0x0c, 0x3c,
  0x19, 0xc1, 0x31, 0xbe, 0xa1, 0xdb, 0x4d, 0x3d, 0x44, 0x77, 0x1b, 0xbe,
  0x48, 0x3d, 0x8f, 0x3e, 0x4d, 0xa9, 0xab, 0xbe, 0xd9, 0x53, 0x8f, 0x3d,
  0xe6, 0xc2, 0x85, 0x3d, 0x59, 0x38, 0x09, 0x3e, 0x79, 0xb6, 0x0c, 0x3e,
  0x00, 0x9e, 0x54, 0xbe, 0x23, 0xd7, 0x18, 0x3e, 0x32, 0x34, 0x8a, 0x3a,
  0x7c, 0x26, 0x89, 0x3e, 0x7b, 0x55, 0x2f, 0xbb, 0x21, 0xaf, 0xdf, 0x39,
  0x1e, 0xa8, 0x11, 0xbe, 0x7a, 0x66, 0x1c, 0x3e, 0x80, 0x65, 0x97, 0x3e,
  0xc9, 0x8e, 0xd3, 0xbd, 0xb0, 0x21, 0x88, 0x3e, 0x86, 0x7e, 0x5a, 0x3e,
  0xcb, 0x08, 0x3f, 0x3d, 0xa9, 0xe0, 0xdc, 0x3d, 0xb9, 0x4c, 0x84, 0x3d,
  0x53, 0xa9, 0x90, 0x3d, 0xfb, 0x06, 0xac, 0x3d, 0xcc, 0x94, 0x5f, 0xbd,
  0x38, 0xec, 0x04, 0xbe, 0xd2, 0xf7, 0x1b, 0x3f, 0xf9, 0x02, 0x93, 0xbd,
  0xfb, 0x50, 0x32, 0x3d, 0x83, 0xb1, 0x61, 0x3d, 0xf8, 0x2e, 0xd8, 0x3e,
  0x37, 0x3c, 0xc2, 0xbe, 0xc4, 0x37, 0x25, 0x3a, 0x98, 0xcd, 0xda, 0xbd,
  0x67, 0x98, 0x14, 0xbe, 0x1e, 0xe4, 0x2a, 0x3b, 0x3e, 0xfa, 0x58, 0x3e,
  0x6e, 0xd0, 0x10, 0x3e, 0x82, 0x07, 0xd6, 0x3d, 0xe9, 0xf3, 0x09, 0xbd,
  0x5d, 0xd4, 0xb4, 0x3e, 0xf7, 0x6b, 0x8d, 0x3e, 0xa2, 0xfe, 0x72, 0xbe,
  0xde, 0x99, 0x80, 0xbe, 0x18, 0xca, 0x62, 0xbd, 0x9a, 0xaa, 0x00, 0xbd,
  0xb2, 0x14, 0x9a, 0x3d, 0x87, 0x6f, 0x64, 0xbc, 0xa2, 0x82, 0x2f, 0xbc,
  0xd2, 0xae, 0xd0, 0x3d, 0x7e, 0xc0, 0x72, 0x3d, 0xaf, 0x7d, 0x1f, 0xbe,
  0x39, 0x95, 0x22, 0x3e, 0xae, 0xee, 0xff, 0xff, 0x04, 0x00, 0x00, 0x00,
  0x00, 0x08, 0x00, 0x00, 0xde, 0x64, 0x0f, 0xbe, 0x86, 0xf8, 0x6e, 0xbf,
  0x4a, 0x7c, 0x0d, 0x3e, 0x1d, 0x83, 0x36, 0xbf, 0xb8, 0x76, 0xc8, 0x3e,
  0x67, 0x28, 0xea, 0x3e, 0x70, 0xd5, 0xb6, 0x3e, 0x6b, 0xb4, 0x81, 0xbd,
  0x38, 0x8d, 0x42, 0x3b, 0x64, 0xb0, 0xbc, 0xbf, 0x92, 0xd4, 0x3d, 0xbc,
  0xea, 0x40, 0xe8, 0xbe, 0x34, 0xf2, 0x74, 0x3d, 0xc9, 0x22, 0x87, 0x3e,
  0x0f, 0x21, 0x79, 0xbe, 0xc9, 0x00, 0x55, 0x3d, 0x50, 0xf1, 0x75, 0x3c,
  0x61, 0x80, 0xc3, 0xbe, 0x4b, 0x90, 0x6e, 0x3b, 0x60, 0xb5, 0x0b, 0x3e,
  0x46, 0x2b, 0xf7, 0x3d, 0x57, 0xf6, 0xf7, 0xbd, 0x96, 0x59, 0xfd, 0xbe,
  0xc4, 0xbd, 0xb5, 0x3d, 0x76, 0x35, 0x0c, 0xbe, 0xf9, 0x48, 0x95, 0xbd,
  0x9e, 0x72, 0x34, 0x3e, 0xee, 0x10, 0xdb, 0x3d, 0x78, 0xb6, 0xb0, 0x3d,
  0xf7, 0x66, 0xaa, 0xbd, 0xbb, 0xc3, 0xe2, 0xbe, 0xae, 0x75, 0x9d, 0xbd,
  0x3c, 0x11, 0xf5, 0xbd, 0x0a, 0x32, 0xb2, 0x3d, 0xc2, 0xa3, 0x6a, 0xbf,
  0xb3, 0xfa, 0xf0, 0x3d, 0x65, 0x0d, 0x3f, 0xbf, 0xad, 0x2c, 0x45, 0xbf,
  0x51, 0x3e, 0x06, 0xbe, 0xcd, 0x11, 0x86, 0xbe, 0x22, 0x38, 0x6f, 0xbe,
  0xde, 0xdc, 0x80, 0xbe, 0xb4, 0x72, 0x3f, 0xbc, 0xca, 0x35, 0xa7, 0xbe,
  0xdd, 0x17, 0x1c, 0xbd, 0x2e, 0xa7, 0x18, 0x3e, 0x5c, 0x6d, 0x09, 0xbd,
  0x29, 0x28, 0xda, 0xbe, 0x94, 0xce, 0x1c, 0xbd, 0xf6, 0xac, 0xc2, 0xbe,
  0xe3, 0x11, 0xc6, 0x3e, 0x8b, 0x18, 0x53, 0xbf, 0x4e, 0x62, 0x7e, 0x3e,
  0xf0, 0xd9, 0xa1, 0x3e, 0x7d, 0x48, 0x59, 0x3e, 0x07, 0x4d, 0xb0, 0x3d,
  0xb4, 0x10, 0xa9, 0x3d, 0x7d, 0x37, 0x08, 0xbf, 0x54, 0x9b, 0x09, 0x3e,
  0x60, 0x81, 0xb7, 0xbe, 0xd3, 0x2a, 0xbc, 0x3d, 0x96, 0x56, 0xe8, 0x3d,
  0xe2, 0x39, 0xc3, 0xbd, 0x22, 0x9d, 0x2d, 0x3e, 0xdc, 0x95, 0xbb, 0xbe,
  0x68, 0xa5, 0xc7, 0x3e, 0x1e, 0x0b, 0xe1, 0x3d, 0x78, 0x59, 0x18, 0x3e,
  0xbe, 0x1e, 0x5e, 0x3e, 0x33, 0x6f, 0xd8, 0x3e, 0xd4, 0xaa, 0x97, 0xbe,
  0x5f, 0xa5, 0x84, 0xbd, 0xab, 0xeb, 0xdf, 0xbe, 0xd9, 0x7a, 0x6a, 0xbe,
  0x76, 0x2d, 0x6e, 0x3d, 0x73, 0x16, 0x03, 0xbd, 0x45, 0x83, 0x73, 0xbd,
  0x0f, 0xe3, 0x19, 0x3e, 0x6b, 0xdb, 0x95, 0xbe, 0xa4, 0x6c, 0xa0, 0xbd,
  0x6c, 0x57, 0xa8, 0xbe, 0x53, 0x12, 0x19, 0xbe, 0x83, 0x64, 0xd4, 0x3d,
  0x85, 0xc2, 0x38, 0x3e, 0x6e, 0x5f, 0xd1, 0x3c, 0x1f, 0x98, 0xd8, 0x3e,
  0xb0, 0xda, 0xc2, 0xbd, 0x61, 0xc1, 0xe3, 0xbd, 0x34, 0x5b, 0xab, 0xbe,
  0xb0, 0xaa, 0x86, 0xbc, 0xf3, 0x29, 0xc3, 0x3d, 0x95, 0x7c, 0xbf, 0x3d,
  0x59, 0x8a, 0x8a, 0x3e, 0x8a, 0x06, 0x9b, 0x3d, 0x3a, 0x77, 0x55, 0xbe,
  0xf2, 0xb4, 0x26, 0xbe, 0x0e, 0x4b, 0xa0, 0xbd, 0x54, 0x1c, 0xf9, 0xbc,
  0xd8, 0x20, 0xcf, 0xbd, 0xc2, 0x50, 0x65, 0x3e, 0x7a, 0x77, 0xcc, 0xbd,
  0x6d, 0x38, 0x52, 0xbe, 0x2d, 0x0f, 0x25, 0x3b, 0xd6, 0xe7, 0xed, 0xbc,
  0x44, 0xa8, 0xa7, 0xbe, 0xdb, 0x97, 0xec, 0x3b, 0xf1, 0x29, 0x1e, 0xbe,
  0xa8, 0x86, 0x36, 0x3e, 0x3e, 0xa0, 0x88, 0x3e, 0x51, 0x3b, 0xde, 0xbd,
  0xc5, 0xca, 0x5b, 0xbd, 0x5a, 0x05, 0x1c, 0xbe, 0xaf, 0x92, 0x3d, 0xbe,
  0x29, 0x0f, 0x8b, 0x3c, 0x11, 0x54, 0x18, 0x3c, 0x90, 0x36, 0x2b, 0x3d,
  0x01, 0xb8, 0x6e, 0x3d, 0x1a, 0xc1, 0x1c, 0xbe, 0x37, 0xdc, 0xb6, 0xbd,
  0x1b, 0x83, 0x33, 0xbc, 0xc1, 0xf3, 0x29, 0xbd, 0x54, 0xca, 0x63, 0xbe,
  0x07, 0xa1, 0xaa, 0xbe, 0xde, 0x06, 0x54, 0xbe, 0x2c, 0xf6, 0xbc, 0xbd,
  0x16, 0x26, 0x22, 0xbe, 0x36, 0x37, 0x52, 0xbe, 0x0b, 0x9e, 0x7c, 0xbe,
  0xf0, 0x59, 0x28, 0xbe, 0x09, 0x39, 0x29, 0xbe, 0x6b, 0x0a, 0xdc, 0xbe,
  0xa4, 0xc9, 0xd9, 0xbe, 0x21, 0x2c, 0xb6, 0xbe, 0x98, 0x3f, 0x5a, 0xbe,
  0xa6, 0xa6, 0x24, 0x3e, 0xd6, 0x14, 0x00, 0xbf, 0x0d, 0x3e, 0x95, 0xbb,
  0x9a, 0x3d, 0x8b, 0x3e, 0x50, 0x20, 0xb4, 0xbd, 0xe7, 0x07, 0x59, 0x3e,
  0xe4, 0x40, 0x46, 0xbe, 0xcd, 0x1b, 0x04, 0x3e, 0xa2, 0x6b, 0x24, 0x3d,
  0x41, 0x6e, 0xbf, 0xbc, 0xfc, 0xe5, 0x0d, 0xbe, 0x01, 0x5b, 0x10, 0x3e,
  0xc7, 0x4b, 0x84, 0xbd, 0x3f, 0x30, 0x7e, 0x3d, 0x69, 0xd9, 0x3f, 0xbe,
  0xd0, 0x1d, 0xde, 0xbd, 0xb8, 0x1b, 0x03, 0xbe, 0xa9, 0x58, 0x85, 0xbd,
  0x61, 0x3d, 0x2a, 0xbe, 0x67, 0x31, 0x2f, 0xbc, 0xee, 0x88, 0x1d, 0xbe,
  0x32, 0x18, 0x36, 0x3e, 0xe4, 0xc3, 0x8c, 0x3c, 0xd7, 0x4b, 0x69, 0x3d,
  0x23, 0x12, 0x3a, 0xbe, 0xe6, 0xcf, 0x1c, 0xbd, 0xc4, 0x06, 0x9a, 0xbd,
  0xed, 0x46, 0xcc, 0xbe, 0x4a, 0x39, 0x9a, 0x3d, 0x7a, 0x4d, 0x74, 0xbe,
  0xc2, 0xb9, 0xf0, 0xbb, 0x10, 0xda, 0x87, 0xbe, 0x0c, 0x4c, 0x5e, 0xb8,
  0xe8, 0xfa, 0x66, 0xbd, 0x95, 0xe8, 0x10, 0xbe, 0xd3, 0x6b, 0x33, 0xbf,
  0x7f, 0x80, 0xa2, 0x3c, 0xbc, 0x7c, 0xfb, 0xbe, 0x54, 0x63, 0xca, 0x3b,
  0x2b, 0x36, 0x69, 0x3e, 0xba, 0x98, 0x6a, 0x3d, 0x56, 0x7d, 0x2e, 0x3e,
  0x03, 0xa9, 0x06, 0x3e, 0xf3, 0x79, 0x4c, 0xbf, 0x8a, 0xc9, 0x7d, 0x3d,
  0x72, 0x05, 0x17, 0xbf, 0x62, 0x45, 0x99, 0x3e, 0x83, 0xe4, 0xdb, 0x3e,
  0x0f, 0x4d, 0xb4, 0xba, 0x32, 0x0a, 0x75, 0x3e, 0xfe, 0xac, 0xe5, 0x3d,
  0xa2, 0x33, 0xd3, 0xbe, 0xdd, 0x26, 0x7a, 0x3c, 0x24, 0xb2, 0xb2, 0xbd,
  0x99, 0x28, 0xfc, 0x3d, 0x49, 0x81, 0x21, 0xbe, 0x4c, 0x0a, 0x87, 0xbd,
  0x77, 0x99, 0x12, 0xbc, 0x66, 0x9a, 0x09, 0xbe, 0x72, 0xc3, 0x34, 0xbd,
  0x0b, 0x67, 0x95, 0x3d, 0x32, 0x83, 0x36, 0xbd, 0x75, 0x8b, 0x5d, 0xbe,
  0xb9, 0x05, 0x10, 0x3d, 0xb2, 0x68, 0x85, 0x3d, 0xf6, 0x98, 0xc2, 0x3d,
  0xd2, 0x0c, 0x51, 0xbe, 0xad, 0x68, 0x17, 0xbc, 0x71, 0x62, 0x6c, 0xbd,
  0xa0, 0x12, 0x27, 0xbe, 0x8f, 0xf3, 0xb3, 0x3e, 0xfd, 0xc0, 0x0f, 0x3f,
  0xb0, 0x88, 0x86, 0xbe, 0x96, 0xf3, 0xbc, 0xbe, 0xab, 0xce, 0xf2, 0xbd,
  0x85, 0x5c, 0xe4, 0x3c, 0xcb, 0xef, 0x12, 0x3e, 0x81, 0xea, 0xea, 0xbc,
  0xf1, 0x3e, 0xa9, 0x3e, 0x9f, 0xf6, 0xad, 0x3e, 0x16, 0xc2, 0x4d, 0xbe,
  0xeb, 0x92, 0xc2, 0xbe, 0xdc, 0xa1, 0x46, 0x3d, 0xc0, 0x46, 0x91, 0x3d,
  0x8a, 0xf7, 0xa6, 0x3c, 0x28, 0xf2, 0x8f, 0x3e, 0x98, 0x30, 0x60, 0xbc,
  0x33, 0x0b, 0x68, 0x3e, 0xa0, 0xd6, 0x0f, 0x3d, 0xa9, 0xdd, 0x53, 0xbe,
  0x4b, 0xd3, 0xba, 0xbd, 0xa9, 0x2d, 0xf7, 0xbc, 0x23, 0x48, 0x83, 0xbd,
  0x4f, 0x1a, 0x29, 0x3f, 0xd7, 0xb8, 0xb9, 0xbe, 0xf7, 0x79, 0xa3, 0xbe,
  0x01, 0x7f, 0xf3, 0xbd, 0x48, 0xc9, 0x03, 0xbe, 0x1c, 0xa9, 0xa2, 0x3a,
  0xe0, 0xb1, 0x7a, 0x3e, 0x97, 0x00, 0xbe, 0x3c, 0xdf, 0xed, 0xcf, 0xba,
  0xd2, 0x8b, 0x90, 0xbe, 0x56, 0x0f, 0xbf, 0xbd, 0x4e, 0xff, 0xab, 0xbd,
  0x98, 0xa3, 0x6c, 0xbd, 0x9b, 0x72, 0x61, 0xbc, 0x02, 0x66, 0x25, 0xbc,
  0xf4, 0x7d, 0x71, 0xbe, 0x93, 0xd3, 0xb2, 0x3d, 0xd6, 0x1c, 0x05, 0xbe,
  0x0e, 0x92, 0x30, 0x3d, 0x47, 0xb6, 0xe1, 0xbd, 0xe4, 0x1c, 0x8d, 0xbc,
  0x8c, 0xce, 0x48, 0xbd, 0x70, 0x0d, 0x54, 0x3e, 0x4b, 0x3f, 0x83, 0xbe,
  0x9e, 0x22, 0x1f, 0xbe, 0xd5, 0xd3, 0x14, 0x3e, 0x82, 0xfe, 0x6b, 0x3c,
  0xa6, 0x37, 0xa0, 0xbd, 0xfe, 0x91, 0xbf, 0x3c, 0x18, 0x47, 0x93, 0x3b,
  0x6a, 0xd3, 0x07, 0x3e, 0x20, 0x75, 0xcc, 0x3d, 0x14, 0x6c, 0x9d, 0xbd,
  0x5d, 0xa0, 0xcf, 0x3d, 0x80, 0x68, 0xe9, 0x3e, 0xb3, 0xcc, 0x67, 0xbd,
  0x63, 0xaf, 0xa5, 0xbe, 0x0f, 0x99, 0xd6, 0x3c, 0x59, 0x67, 0xba, 0x3d,
  0x00, 0x89, 0x1b, 0xbf, 0x6a, 0xfa, 0xe1, 0x3d, 0xe2, 0x84, 0xb0, 0xbe,
  0x51, 0xed, 0x04, 0xbf, 0x6d, 0x54, 0x14, 0xbe, 0xa8, 0x03, 0xc8, 0xbe,
  0x57, 0xd3, 0x53, 0x3e, 0xb7, 0xdb, 0x57, 0x3c, 0xd9, 0xfe, 0xd7, 0xbe,
  0x0d, 0x24, 0x84, 0xbd, 0x5f, 0xb2, 0x93, 0x3e, 0xb4, 0xda, 0xcd, 0xbd,
  0x20, 0x40, 0x2c, 0xbd, 0xf3, 0xb5, 0x0b, 0x3d, 0x4a, 0x07, 0x3d, 0xbe,
  0x4e, 0xa8, 0x9d, 0xbe, 0x7f, 0xa0, 0x34, 0xbd, 0xaf, 0x74, 0x61, 0xbd,
  0xaa, 0x92, 0xd5, 0xbd, 0x32, 0x61, 0x5d, 0x3e, 0xa0, 0xd1, 0x50, 0xbe,
  0x19, 0x55, 0x38, 0xbf, 0x59, 0x95, 0x69, 0x3c, 0x88, 0xb7, 0xaa, 0xbd,
  0x0c, 0x4f, 0x55, 0x3e, 0x86, 0xc8, 0x5b, 0x3e, 0x58, 0xc4, 0x38, 0xbe,
  0xed, 0xd2, 0x3b, 0x3e, 0x27, 0x3f, 0x91, 0x3d, 0x8c, 0xa8, 0x55, 0x3e,
  0x73, 0xee, 0xaa, 0xbe, 0x59, 0x96, 0x36, 0x3d, 0x79, 0xb7, 0x73, 0xbd,
  0x92, 0x54, 0x0d, 0xbe, 0x27, 0x69, 0x30, 0x3e, 0xdf, 0xea, 0x6b, 0x3e,
  0x39, 0x77, 0x05, 0xbe, 0x81, 0xf7, 0xbe, 0xbe, 0x38, 0xfc, 0xc3, 0xbe,
  0xee, 0xc7, 0xa6, 0xbd, 0x12, 0x4a, 0xb2, 0x3d, 0xcc, 0xd4, 0x81, 0xbd,
  0xb3, 0x89, 0x49, 0x3e, 0xff, 0x25, 0xd1, 0x3e, 0xf8, 0xe7, 0x40, 0xbe,
  0x5c, 0x18, 0xf6, 0xbe, 0xa0, 0x47, 0x3b, 0xbe, 0xfe, 0xde, 0x3c, 0x3e,
  0xc3, 0x26, 0x1b, 0x3e, 0x7c, 0x5b, 0xbf, 0x3e, 0x46, 0xd5, 0x6c, 0xbc,
  0xdb, 0x5d, 0x9f, 0x3e, 0xf9, 0x1a, 0x75, 0xbd, 0xe0, 0x8f, 0xb0, 0xbe,
  0xf4, 0x11, 0xab, 0x3c, 0x6f, 0x5e, 0x0c, 0xbc, 0x91, 0xc2, 0xd6, 0x3d,
  0x39, 0x9e, 0x00, 0xbe, 0xa3, 0x53, 0x85, 0x3e, 0x23, 0x31, 0x7b, 0x3f,
  0x9f, 0xa6, 0x31, 0x3e, 0x4c, 0xac, 0x6f, 0x3e, 0xf6, 0xb0, 0x87, 0xbd,
  0xf5, 0x3b, 0x9b, 0xbd, 0x30, 0x19, 0x48, 0x3e, 0xbf, 0xfb, 0x26, 0xbf,
  0x51, 0x26, 0x0f, 0xbd, 0x0d, 0xa9, 0x1b, 0x3e, 0xd1, 0xbf, 0x0c, 0xbd,
  0x07, 0x5e, 0xfd, 0xbd, 0x1e, 0x75, 0x5f, 0xbd, 0xa0, 0x4a, 0x9c, 0xbd,
  0x69, 0xec, 0x67, 0xbe, 0x23, 0x2e, 0x2f, 0xbf, 0x0f, 0xf3, 0x99, 0xbe,
  0xf1, 0x6b, 0xe6, 0xbe, 0x54, 0xea, 0x18, 0xbd, 0x42, 0x97, 0xd7, 0x3c,
  0x1e, 0x93, 0x00, 0xbd, 0xe2, 0x43, 0xf2, 0xbc, 0x83, 0x14, 0xd9, 0xbe,
  0x5c, 0xed, 0x50, 0xbf, 0xd1, 0x4a, 0x81, 0xbe, 0xe2, 0x93, 0xb7, 0xbe,
  0x43, 0x09, 0x5f, 0xbd, 0xb1, 0xbd, 0x19, 0xbb, 0x5f, 0x5d, 0x83, 0xbe,
  0xa2, 0x2a, 0x12, 0xbe, 0x66, 0x62, 0x30, 0xbe, 0x25, 0x4a, 0x61, 0xbd,
  0x50, 0x1a, 0xad, 0xbe, 0x58, 0xc7, 0x7a, 0xbe, 0x22, 0x28, 0xff, 0xbb,
  0xf9, 0xbc, 0x4f, 0xbd, 0x9d, 0x74, 0xcc, 0xbe, 0x98, 0xe4, 0x1b, 0x3d,
  0x31, 0xa2, 0xcb, 0x3d, 0x87, 0x91, 0x82, 0xbd, 0xce, 0xd7, 0x14, 0x3e,
  0xfd, 0xd3, 0xe3, 0x3d, 0x36, 0x06, 0x8c, 0xbe, 0xaf, 0x43, 0xe2, 0x3d,
  0x6d, 0x36, 0x9d, 0xbe, 0x06, 0x7c, 0x49, 0x3e, 0xd3, 0xc4, 0xe0, 0xbd,
  0x49, 0xea, 0x94, 0xbd, 0xbb, 0xdc, 0x2b, 0xbe, 0x91, 0xf4, 0xba, 0xbe,
  0x3f, 0xc1, 0x10, 0xbe, 0xd3, 0x27, 0x00, 0x3e, 0xa0, 0x73, 0xac, 0xbe,
  0x69, 0x16, 0xb8, 0x3d, 0x01, 0xa6, 0x65, 0xbe, 0xd3, 0x96, 0x95, 0x3d,
  0x1c, 0xf0, 0xcd, 0x3c, 0xa1, 0xef, 0x91, 0xbd, 0x49, 0x27, 0x00, 0xbf,
  0x3c, 0xea, 0x90, 0xbc, 0x53, 0xdf, 0xe4, 0xbc, 0x26, 0x87, 0x54, 0xbd,
  0xc7, 0x49, 0xa1, 0xbe, 0xae, 0x4d, 0xc6, 0xbd, 0x84, 0x33, 0xa8, 0xbd,
  0xc7, 0x1d, 0xf7, 0xbd, 0x36, 0x51, 0xb4, 0x3d, 0x97, 0x8b, 0x97, 0xbd,
  0x6b, 0xab, 0x97, 0x3e, 0x5a, 0x9c, 0xa9, 0x3c, 0xbc, 0xdd, 0x9d, 0xbe,
  0x1e, 0xaf, 0xe8, 0x3d, 0x2b, 0x1b, 0x80, 0x3c, 0x88, 0xfe, 0x5c, 0xbe,
  0xa4, 0xb5, 0x5f, 0xbd, 0xbc, 0x29, 0x2b, 0x3c, 0x20, 0x54, 0x17, 0xbe,
  0x84, 0x60, 0xbd, 0x3c, 0xbc, 0x38, 0x25, 0xbe, 0xd4, 0xa8, 0x0b, 0x3c,
  0x45, 0x3f, 0x92, 0xbb, 0x2b, 0x43, 0x64, 0xbe, 0x49, 0x78, 0xc8, 0xbd,
  0x8f, 0xe0, 0xa4, 0x3e, 0x76, 0xa8, 0xee, 0xbd, 0x56, 0x11, 0xca, 0xbd,
  0xd0, 0xab, 0xbb, 0xbd, 0xfc, 0x78, 0x5a, 0x3e, 0xa6, 0x5c, 0xbd, 0x3d,
  0x0c, 0x31, 0x25, 0xbe, 0x57, 0x3c, 0xe6, 0xbd, 0x6e, 0x80, 0x7f, 0x3e,
  0x05, 0x1c, 0x2c, 0xbe, 0x5c, 0x52, 0x80, 0xbd, 0x55, 0x45, 0x9d, 0xbb,
  0xad, 0x0b, 0x54, 0x3d, 0x85, 0xe8, 0x08, 0xbe, 0xe1, 0x9a, 0x5a, 0x3e,
  0xf2, 0x92, 0x12, 0xbe, 0x4d, 0xbf, 0x3e, 0xbe, 0x6e, 0xe0, 0x50, 0xbe,
  0xad, 0x88, 0x75, 0xbe, 0xaa, 0x07, 0xfb, 0xbc, 0x1f, 0xb5, 0x9e, 0xbd,
  0xea, 0x3f, 0x4c, 0xbd, 0x8b, 0x33, 0xcb, 0x3d, 0xb7, 0xcd, 0x7c, 0x3e,
  0xcd, 0x9e, 0x05, 0xbe, 0xd4, 0x43, 0xed, 0x3b, 0x2a, 0x26, 0xf0, 0xbd,
  0x15, 0xf8, 0x12, 0x3f, 0x52, 0xd7, 0xee, 0x3e, 0xdb, 0x73, 0x7f, 0x3d,
  0xed, 0xd2, 0xf2, 0x3d, 0x95, 0x01, 0x9e, 0xbd, 0xf3, 0xf0, 0x62, 0x3e,
  0x94, 0x92, 0xfd, 0xbd, 0x5d, 0x24, 0x3c, 0xbe, 0x00, 0xa5, 0xb3, 0xbd,
  0x07, 0x6d, 0x24, 0xbc, 0xbe, 0xa1, 0x36, 0x3d, 0x6e, 0xc2, 0xcc, 0x3d,
  0x61, 0x09, 0x6e, 0xbe, 0xe1, 0x80, 0xc8, 0xbc, 0xc0, 0x3e, 0x01, 0xbe,
  0x34, 0xc7, 0xcc, 0xbd, 0x40, 0x2b, 0xda, 0xbd, 0xee, 0x93, 0x23, 0xbe,
  0x56, 0xee, 0x3c, 0xbd, 0x3c, 0x9e, 0x09, 0x3e, 0x39, 0x4c, 0xe5, 0xbd,
  0x0e, 0xee, 0x14, 0x3c, 0x93, 0x99, 0xe2, 0xbd, 0x91, 0x27, 0xca, 0xbd,
  0x6f, 0x5f, 0xd0, 0xbd, 0x7d, 0x48, 0x03, 0xbe, 0x7c, 0x80, 0x8c, 0xbd,
  0x65, 0x1e, 0xb1, 0x3d, 0x56, 0x5b, 0x73, 0xbd, 0xb8, 0xf9, 0x40, 0xbd,
  0x71, 0x61, 0x67, 0xbd, 0xc2, 0x7c, 0x89, 0xbd, 0xa5, 0x3a, 0x64, 0x3f,
  0xb1, 0x4d, 0xab, 0xbd, 0x6d, 0xcc, 0x1b, 0x3e, 0x23, 0x14, 0x68, 0x3e,
  0xe1, 0xe7, 0x8d, 0xbb, 0x69, 0x97, 0x06, 0xbd, 0x71, 0x27, 0xc3, 0xbc,
  0xa6, 0xb6, 0x2f, 0x3d, 0x5e, 0xce, 0x7c, 0x3e, 0xf9, 0x85, 0x73, 0x3d,
  0x53, 0xb9, 0x5f, 0x3e, 0xc6, 0x8a, 0xda, 0x3e, 0x8d, 0x03, 0x2c, 0xbd,
  0xe5, 0xcc, 0xd6, 0xbb, 0xa1, 0xda, 0x92, 0x3e, 0xcf, 0x9b, 0xeb, 0xbd,
  0x4e, 0x12, 0x17, 0xbd, 0x1d, 0x0d, 0x10, 0x3e, 0xac, 0xe0, 0xf2, 0x3e,
  0x93, 0x1a, 0x02, 0xbe, 0x7f, 0xb4, 0xc7, 0xbe, 0x02, 0xe3, 0x7b, 0x3e,
  0x55, 0xfd, 0xbc, 0xbc, 0xfd, 0x98, 0x87, 0xbd, 0x57, 0x2c, 0xc9, 0x3d,
  0x11, 0x5d, 0xc6, 0x3c, 0x3b, 0x1d, 0x14, 0x3d, 0x5f, 0xb9, 0x60, 0xbe,
  0x6d, 0xf3, 0xfb, 0xbe, 0x98, 0xb5, 0x01, 0xbd, 0xbd, 0xf3, 0xf3, 0xbc,
  0x7f, 0x08, 0xb5, 0xbd, 0x94, 0xe2, 0x6d, 0x3e, 0xc2, 0x16, 0x8f, 0x3e,
  0xbd, 0xa9, 0xed, 0x3c, 0xe2, 0x69, 0xe5, 0xbd, 0x7f, 0xae, 0xc9, 0xbe,
  0xf4, 0xb6, 0x6b, 0xbb, 0x90, 0xbd, 0xd1, 0xbd, 0x2f, 0x57, 0xf6, 0xbd,
  0x55, 0x62, 0xb5, 0xbc, 0xe9, 0x68, 0x82, 0x3e, 0x4d, 0x48, 0xab, 0x3d,
  0x15, 0xf1, 0xa5, 0xbb, 0xda, 0xae, 0x88, 0xbe, 0xb1, 0x74, 0xb5, 0xbd,
  0x74, 0xef, 0xff, 0xff, 0x78, 0xef, 0xff, 0xff, 0x7c, 0xef, 0xff, 0xff,
  0x80, 0xef, 0xff, 0xff, 0x84, 0xef, 0xff, 0xff, 0x88, 0xef, 0xff, 0xff,
  0xd2, 0xf6, 0xff, 0xff, 0x04, 0x00, 0x00, 0x00, 0x00, 0x07, 0x00, 0x00,
  0xe8, 0x1b, 0x26, 0x1f, 0x2e, 0xff, 0xd0, 0x28, 0xe7, 0xeb, 0xcb, 0x45,
  0xeb, 0xec, 0xde, 0xfe, 0xf3, 0x32, 0x1c, 0xe8, 0x26, 0xfb, 0xf7, 0x0a,
  0xed, 0x01, 0xe2, 0x23, 0xf9, 0x15, 0xbf, 0x24, 0x2c, 0x1f, 0x0f, 0x15,
  0x10, 0xfd, 0xed, 0x00, 0x0f, 0xeb, 0xc5, 0x2c, 0xfa, 0x12, 0xe4, 0x21,
  0x05, 0x0a, 0x13, 0xd9, 0x09, 0xe1, 0x2d, 0xfd, 0x0e, 0xe8, 0x09, 0x13,
  0xfc, 0x08, 0xd8, 0x27, 0x12, 0x26, 0xf1, 0x0a, 0x1f, 0xf4, 0x10, 0x04,
  0x0d, 0xe4, 0x09, 0x0f, 0xf6, 0x20, 0xe3, 0x04, 0x19, 0x0d, 0x13, 0xf5,
  0x32, 0xf6, 0xd8, 0x08, 0x13, 0xe6, 0xed, 0x0a, 0x02, 0xf4, 0xd2, 0x07,
  0x28, 0x0d, 0x05, 0x1b, 0x1c, 0xf3, 0xf4, 0x15, 0x21, 0xfd, 0xb3, 0x05,
  0x0c, 0xe0, 0xd1, 0xff, 0x25, 0x25, 0xfb, 0xec, 0xfa, 0x31, 0xeb, 0xd5,
  0xc2, 0xcf, 0xe8, 0xde, 0x1c, 0x1e, 0x0c, 0x12, 0x50, 0x40, 0xed, 0x17,
  0xec, 0x19, 0xf2, 0xf8, 0xec, 0xc2, 0xdd, 0x00, 0xf1, 0xd5, 0xf0, 0x1a,
  0x70, 0x31, 0x0b, 0xe6, 0xfc, 0xcd, 0xfb, 0xfe, 0x04, 0xe2, 0xff, 0x15,
  0xe6, 0xf5, 0x16, 0x00, 0x7f, 0x44, 0xe3, 0x0d, 0x10, 0xf7, 0xfa, 0xf8,
  0x10, 0xe0, 0x10, 0x1b, 0xf2, 0x28, 0x38, 0xe6, 0x6f, 0x35, 0xfb, 0x10,
  0xf0, 0x00, 0xed, 0x0d, 0x04, 0xc0, 0xf6, 0x19, 0x06, 0x26, 0x1d, 0xfe,
  0x2b, 0x64, 0xfb, 0x09, 0x11, 0x1b, 0xea, 0xfb, 0x07, 0xb9, 0x26, 0x26,
  0x0a, 0x25, 0x0e, 0x08, 0x2a, 0x20, 0xfb, 0x0a, 0x0c, 0xf2, 0xf3, 0xf5,
  0x02, 0xe8, 0xf9, 0x11, 0xf2, 0xe9, 0xf6, 0x09, 0x0e, 0x22, 0xee, 0xfd,
  0xf9, 0x0e, 0x07, 0xf8, 0x1c, 0xfc, 0x06, 0xea, 0xf7, 0x0d, 0x08, 0x04,
  0x54, 0xdb, 0xf5, 0xf4, 0x0c, 0xfa, 0x06, 0x00, 0x09, 0xf9, 0xfe, 0x03,
  0xf5, 0xeb, 0x01, 0x0f, 0x02, 0xfd, 0xca, 0xed, 0x04, 0xdf, 0xf4, 0x04,
  0x03, 0xd7, 0x01, 0x03, 0xf7, 0xe3, 0x06, 0xec, 0x27, 0x58, 0xfe, 0xf0,
  0x0d, 0xea, 0xe5, 0x01, 0xfe, 0xc2, 0x01, 0x19, 0xf9, 0x08, 0x0e, 0xde,
  0x4e, 0x40, 0xde, 0xfc, 0x0f, 0x09, 0xeb, 0xf4, 0x00, 0xd3, 0x05, 0x0a,
  0x00, 0x0b, 0x0b, 0xf7, 0x11, 0x3e, 0xd1, 0x04, 0x13, 0x01, 0xfe, 0xf5,
  0xfc, 0xeb, 0xfe, 0xfd, 0x01, 0x08, 0x11, 0x07, 0x0c, 0x05, 0xf4, 0xfc,
  0x08, 0xfb, 0x09, 0xff, 0xf9, 0xf7, 0x0e, 0xf0, 0xfb, 0xfc, 0x03, 0x09,
  0xed, 0x0f, 0x09, 0x01, 0xfb, 0x05, 0xc5, 0x03, 0xff, 0xe6, 0xe7, 0x1c,
  0xef, 0xea, 0xbb, 0xc3, 0xee, 0x3e, 0x10, 0xf7, 0x03, 0xe5, 0xe5, 0xf4,
  0x1a, 0xea, 0xf0, 0x27, 0xe1, 0x0d, 0xcd, 0xdf, 0xe1, 0xde, 0x1d, 0xe7,
  0x0a, 0xe4, 0xf9, 0x02, 0x32, 0xf7, 0x06, 0x38, 0xd5, 0x07, 0xf0, 0xd9,
  0x08, 0x00, 0xfd, 0xf6, 0x09, 0x03, 0x24, 0xe2, 0x1e, 0xf5, 0x19, 0x0d,
  0xc6, 0xe1, 0x16, 0x00, 0x04, 0x1d, 0xe8, 0x0c, 0x14, 0x19, 0x08, 0x04,
  0x13, 0xed, 0x0b, 0xec, 0xcd, 0xfb, 0xd3, 0xf0, 0xf0, 0x1e, 0xed, 0x14,
  0x19, 0x0a, 0xdb, 0xfc, 0x17, 0xf0, 0x3b, 0xf9, 0xcb, 0x15, 0xef, 0xdb,
  0xff, 0x00, 0xf9, 0x20, 0x03, 0x0e, 0xfc, 0x19, 0xfb, 0x0b, 0xd8, 0xf8,
  0x27, 0xe3, 0xe2, 0xd6, 0x12, 0x09, 0x41, 0x0a, 0x11, 0x06, 0x8e, 0x07,
  0x09, 0xa5, 0xde, 0x51, 0xfd, 0xd4, 0xb9, 0x07, 0x11, 0x2a, 0xec, 0xfa,
  0x06, 0x22, 0xea, 0x0f, 0x0b, 0xd6, 0xfa, 0x12, 0xec, 0x02, 0xaa, 0x0e,
  0xe1, 0x00, 0x0a, 0x19, 0xf6, 0x15, 0xdb, 0x03, 0x0b, 0xf5, 0x17, 0x0e,
  0xe6, 0xfd, 0xc7, 0x23, 0xe8, 0x0e, 0xed, 0x0d, 0xfc, 0x13, 0x0d, 0x06,
  0x05, 0x06, 0x28, 0x25, 0xf2, 0xd5, 0xfc, 0x2a, 0x33, 0x0e, 0x01, 0xdc,
  0x02, 0x1d, 0x02, 0x03, 0x02, 0x0a, 0x00, 0x13, 0xec, 0xf5, 0xe7, 0x1b,
  0x1f, 0x33, 0xee, 0x07, 0x0e, 0x19, 0xd0, 0x16, 0x07, 0xc5, 0x22, 0xf4,
  0xfc, 0xe7, 0xdf, 0x34, 0x02, 0x13, 0x12, 0x21, 0x13, 0x0a, 0xeb, 0x06,
  0x1a, 0xf5, 0xf7, 0xee, 0x14, 0x00, 0xf3, 0xfb, 0xd4, 0x0d, 0x17, 0x26,
  0x26, 0x09, 0xd5, 0xf4, 0x39, 0xd4, 0xda, 0x39, 0x13, 0xf0, 0xd1, 0xf1,
  0xed, 0x0c, 0x18, 0xf0, 0x1c, 0x28, 0x02, 0x0d, 0x1d, 0xef, 0x14, 0x31,
  0x0d, 0xfa, 0xd9, 0xf0, 0x20, 0x1f, 0x26, 0xf9, 0x2b, 0x10, 0xe8, 0x19,
  0x33, 0xec, 0x09, 0x3f, 0x08, 0xff, 0xf1, 0xf3, 0xe2, 0x33, 0x02, 0x17,
  0x0a, 0x15, 0x02, 0x00, 0x2e, 0x07, 0x05, 0xfc, 0xe4, 0x03, 0x08, 0x1e,
  0xed, 0x20, 0xfe, 0x17, 0x24, 0x04, 0xf8, 0xfa, 0x09, 0xf6, 0xef, 0x22,
  0x1a, 0xe2, 0xed, 0x02, 0xf5, 0x0c, 0x0c, 0x0f, 0x1a, 0x10, 0xd6, 0x1b,
  0x23, 0xf0, 0xff, 0x14, 0xf2, 0x02, 0xda, 0xe7, 0x06, 0x00, 0x1f, 0x30,
  0x10, 0x11, 0xe1, 0xed, 0xf2, 0x1d, 0xe5, 0x45, 0xe1, 0xef, 0xde, 0xfd,
  0xe9, 0x00, 0x14, 0x01, 0x1f, 0xfd, 0xb2, 0x0d, 0x1a, 0xb0, 0xf2, 0x2c,
  0x08, 0xbe, 0xaf, 0x12, 0x12, 0x02, 0xf5, 0xeb, 0x24, 0x24, 0xd1, 0xf8,
  0x23, 0xef, 0x07, 0x08, 0x00, 0x02, 0xba, 0xfa, 0x0f, 0x21, 0xf8, 0x01,
  0xec, 0x18, 0xc7, 0xfd, 0x11, 0xeb, 0x2f, 0x46, 0x09, 0xd3, 0xc3, 0x16,
  0xf9, 0x1a, 0x09, 0x07, 0x04, 0x1a, 0xf0, 0x12, 0x11, 0xfc, 0x07, 0x30,
  0x0f, 0xf7, 0xe3, 0x06, 0x06, 0x33, 0xff, 0x06, 0x16, 0x0a, 0xff, 0x10,
  0x16, 0xf0, 0x0c, 0x20, 0x01, 0xdd, 0xbe, 0x1e, 0xf5, 0xfe, 0xe7, 0xf8,
  0x2b, 0x04, 0xd1, 0xfb, 0x19, 0xf4, 0x25, 0x22, 0x04, 0xd4, 0xd8, 0x2c,
  0x10, 0x1c, 0xfe, 0x14, 0x1b, 0x0b, 0xf0, 0x22, 0x0f, 0xf5, 0xdb, 0x16,
  0xf1, 0xec, 0xd0, 0x0e, 0xcf, 0xcb, 0xd3, 0x0c, 0xbb, 0xd3, 0x1d, 0xf2,
  0x35, 0x17, 0xf7, 0xcb, 0xea, 0xcd, 0x08, 0xd2, 0xf4, 0xf5, 0xf5, 0xf3,
  0xfe, 0xf6, 0x0c, 0xf9, 0x07, 0x07, 0x1e, 0x28, 0xf8, 0x0e, 0x15, 0xda,
  0xbd, 0x04, 0xd9, 0xe6, 0x09, 0xea, 0x9b, 0x01, 0xf9, 0xaf, 0xfa, 0x1b,
  0x09, 0xd5, 0xef, 0xe0, 0xb5, 0x9f, 0xbd, 0x0f, 0x06, 0xda, 0xa6, 0x00,
  0xf4, 0xcf, 0xec, 0x12, 0x0a, 0xa8, 0xb5, 0x03, 0xd7, 0xb8, 0xeb, 0xeb,
  0xfe, 0xce, 0xfc, 0xfa, 0x02, 0x04, 0xf4, 0xf2, 0x05, 0xde, 0x0e, 0x0a,
  0xed, 0xa7, 0x06, 0xf5, 0xee, 0xc3, 0x15, 0xf7, 0xf3, 0x21, 0xf5, 0x1f,
  0xfc, 0xc0, 0x02, 0x0a, 0xdc, 0xc8, 0xeb, 0xff, 0xf4, 0xe1, 0x0f, 0xff,
  0xfe, 0xfe, 0x09, 0xe4, 0xf7, 0x04, 0x09, 0xfc, 0xfc, 0x15, 0xed, 0xd8,
  0xe2, 0x02, 0xe4, 0xde, 0x07, 0xd0, 0xec, 0xfb, 0xfa, 0x2b, 0x04, 0xf5,
  0x3a, 0x45, 0xe4, 0x0c, 0x05, 0xe5, 0xe5, 0xff, 0xfd, 0xca, 0xf9, 0xee,
  0xdf, 0x09, 0xff, 0xff, 0x2b, 0x43, 0xf1, 0xe1, 0x04, 0xe6, 0xe3, 0xf0,
  0x0a, 0xf2, 0xee, 0xfc, 0xe3, 0xfb, 0x10, 0xe3, 0x33, 0x24, 0xde, 0xef,
  0xed, 0x2a, 0xef, 0xd1, 0xf9, 0xf3, 0x19, 0xd8, 0xe9, 0x1e, 0x1b, 0xf7,
  0x32, 0x41, 0xd6, 0x15, 0xeb, 0x42, 0xfc, 0xed, 0xe0, 0xe9, 0x12, 0x1a,
  0x24, 0x17, 0xff, 0x37, 0x18, 0xfc, 0x07, 0x0d, 0x16, 0xe8, 0xfd, 0xfb,
  0xf8, 0xf2, 0xd6, 0x2e, 0x07, 0xfe, 0xf2, 0x2b, 0xea, 0x38, 0xea, 0xf5,
  0xe8, 0xf8, 0xd3, 0xe9, 0xc5, 0xdc, 0x01, 0xd5, 0xe5, 0x00, 0xfd, 0xda,
  0x00, 0x18, 0xd6, 0x13, 0x0a, 0xf9, 0xe3, 0x01, 0xf1, 0xf3, 0xfb, 0xfe,
  0x0c, 0xff, 0xec, 0xf0, 0x07, 0xf4, 0x08, 0x07, 0x0d, 0xfc, 0xd6, 0xdd,
  0xe9, 0xe0, 0xfc, 0x09, 0x08, 0x13, 0xe9, 0xe6, 0xf9, 0xf4, 0xdd, 0x15,
  0x12, 0x04, 0xe3, 0xd7, 0xe5, 0x14, 0xea, 0x09, 0x02, 0x0b, 0xcd, 0xda,
  0xf3, 0xc8, 0xf0, 0x00, 0x01, 0xf6, 0xf6, 0xdd, 0x07, 0x0b, 0xfb, 0x00,
  0x02, 0xa7, 0xee, 0xbe, 0xe3, 0xfa, 0xed, 0x1b, 0x0f, 0xd9, 0x12, 0xec,
  0x04, 0xf6, 0x08, 0xec, 0xf8, 0xf2, 0x0e, 0xba, 0xe0, 0xe6, 0xeb, 0x18,
  0x05, 0xe7, 0x15, 0xee, 0xcf, 0x15, 0xfa, 0x00, 0xee, 0xc2, 0x07, 0xd7,
  0xc1, 0xbd, 0xee, 0xfc, 0xf6, 0xc5, 0x0d, 0x01, 0xf9, 0x0a, 0x07, 0x18,
  0xef, 0x08, 0x16, 0xef, 0xc8, 0xfd, 0x12, 0xf0, 0x37, 0xed, 0x07, 0xe1,
  0x2b, 0xf6, 0xbe, 0x06, 0xeb, 0x11, 0x01, 0xeb, 0xca, 0xd8, 0x00, 0x0a,
  0xf5, 0xf3, 0xfa, 0xe8, 0x23, 0x12, 0xe2, 0xfd, 0xeb, 0x16, 0x09, 0x0d,
  0xf3, 0xf0, 0x10, 0xe2, 0x1c, 0x06, 0xfb, 0xea, 0x1b, 0x11, 0xe1, 0x15,
  0xf7, 0x14, 0xf6, 0x0f, 0xed, 0xe2, 0x07, 0x08, 0x24, 0xb8, 0x26, 0xf7,
  0xe4, 0x2b, 0xfc, 0xf8, 0xd4, 0x1b, 0x0d, 0x0e, 0xdc, 0xee, 0x23, 0xe9,
  0xfb, 0xc4, 0x17, 0xdf, 0xfe, 0x10, 0xd6, 0x27, 0xc0, 0x38, 0x06, 0xef,
  0xdb, 0xde, 0x2b, 0x0a, 0x0e, 0xdd, 0x02, 0xfe, 0x3c, 0x07, 0xe7, 0x32,
  0xc8, 0x1d, 0xf5, 0xef, 0x0e, 0x0d, 0x20, 0x14, 0x2b, 0xf3, 0x01, 0xff,
  0xe2, 0x0f, 0xf2, 0x1c, 0x9d, 0xeb, 0xf0, 0xf6, 0xe2, 0xe5, 0x26, 0x0b,
  0x35, 0xfe, 0xb7, 0x1f, 0x1a, 0xc9, 0xcb, 0x69, 0x06, 0x07, 0xaa, 0x0d,
  0xee, 0x2f, 0x01, 0x0a, 0x17, 0x41, 0xf2, 0x05, 0x0c, 0xea, 0xf0, 0x31,
  0x01, 0x01, 0xb0, 0x16, 0x07, 0x10, 0x0e, 0x16, 0x02, 0x35, 0x23, 0x11,
  0x07, 0xe9, 0x0b, 0x19, 0xfc, 0xfd, 0xb2, 0x28, 0x12, 0x3a, 0xf6, 0xf7,
  0x1d, 0x23, 0x34, 0x0d, 0x18, 0xdc, 0xe7, 0x11, 0xfe, 0xf1, 0xde, 0x18,
  0x0e, 0x2e, 0xf4, 0xf9, 0x0e, 0x42, 0x23, 0x06, 0x09, 0xe9, 0xef, 0xf2,
  0x00, 0xf5, 0xb3, 0x24, 0xe5, 0x13, 0x0e, 0xfe, 0x04, 0x29, 0xf7, 0x12,
  0x33, 0xe5, 0xfc, 0x03, 0x13, 0xf5, 0xaf, 0x1a, 0xff, 0xef, 0x1e, 0x1d,
  0x21, 0x12, 0xed, 0xf8, 0x21, 0x07, 0xc8, 0x20, 0x03, 0xfe, 0xec, 0xf1,
  0x28, 0x32, 0xf6, 0x02, 0xf8, 0x0c, 0xf2, 0xf7, 0xca, 0xdf, 0xf6, 0xfe,
  0x18, 0x14, 0x00, 0x12, 0x3e, 0x29, 0xbd, 0xfc, 0xfb, 0x21, 0xef, 0xf1,
  0xe0, 0xdd, 0xf9, 0xf2, 0xfa, 0x04, 0xff, 0x1f, 0x31, 0x30, 0xea, 0xe2,
  0xe5, 0x0d, 0xef, 0xee, 0x0d, 0xf5, 0xff, 0x04, 0xfc, 0x17, 0x0d, 0x22,
  0x4f, 0x38, 0xf5, 0xe6, 0xfc, 0x0b, 0x1c, 0x0a, 0xfe, 0x01, 0x0e, 0x19,
  0xef, 0x2b, 0x14, 0x13, 0x40, 0xee, 0xe5, 0xf8, 0xff, 0xfb, 0xf2, 0xff,
  0x18, 0xd1, 0x0a, 0xe0, 0xd6, 0xf5, 0xfd, 0x0e, 0xf4, 0x14, 0xdb, 0xea,
  0x11, 0xd6, 0xd9, 0xf1, 0xfb, 0xc5, 0xf1, 0xf2, 0xd5, 0xe2, 0xf7, 0xcd,
  0xfb, 0x19, 0x02, 0xf5, 0xec, 0x10, 0xe1, 0xfd, 0x0a, 0x02, 0x11, 0x08,
  0xf5, 0x0c, 0x11, 0xd8, 0xef, 0x12, 0x2e, 0xfc, 0x28, 0xe7, 0xfb, 0x02,
  0xdb, 0x06, 0xc2, 0x35, 0xfb, 0x0a, 0xf2, 0xfc, 0xec, 0x02, 0xfe, 0xef,
  0xf8, 0xfe, 0xfe, 0x21, 0x26, 0x0d, 0xd6, 0xf8, 0xe2, 0x11, 0xff, 0xff,
  0xe5, 0xc6, 0x39, 0xfc, 0x22, 0xd4, 0x03, 0x17, 0xdd, 0xfc, 0xe4, 0x14,
  0xf9, 0x26, 0xf9, 0x0c, 0x19, 0xf9, 0x37, 0xfb, 0x00, 0xc6, 0x36, 0xe5,
  0xf0, 0x22, 0xfb, 0x16, 0xc8, 0x36, 0x0a, 0x05, 0xe7, 0x04, 0x24, 0xef,
  0xe4, 0xd7, 0xf3, 0xe2, 0x0b, 0x29, 0xd9, 0x24, 0xb7, 0x16, 0x09, 0xfb,
  0xd1, 0x00, 0x1a, 0x0d, 0xf9, 0x06, 0xf8, 0xda, 0xfa, 0x17, 0xd3, 0x1b,
  0xa5, 0x16, 0xed, 0x08, 0x02, 0xfc, 0x20, 0x31, 0x0c, 0x00, 0xff, 0xdf,
  0xdf, 0x14, 0xf2, 0x21, 0x9b, 0xee, 0xeb, 0xfb, 0xea, 0xf3, 0x24, 0xeb,
  0x19, 0xcd, 0x06, 0xc7, 0xe5, 0xfb, 0xd0, 0x14, 0xce, 0x2f, 0xfd, 0xe9,
  0xf9, 0xe9, 0x14, 0x1a, 0xfd, 0xe1, 0xf8, 0xd7, 0x14, 0x0b, 0xcd, 0x23,
  0xe0, 0x15, 0x01, 0x0a, 0xd9, 0xdf, 0x1f, 0xfc, 0x1b, 0xf6, 0x11, 0xc9,
  0xef, 0x0c, 0xea, 0x04, 0xd9, 0x22, 0x07, 0x13, 0xfa, 0xf9, 0x17, 0xf8,
  0x30, 0xdf, 0x22, 0xfc, 0xe3, 0x39, 0xfb, 0x22, 0xdf, 0x0d, 0x01, 0x0b,
  0xe2, 0xe4, 0x22, 0xf3, 0x0b, 0xcc, 0xf1, 0xe9, 0x1c, 0x24, 0xe8, 0x40,
  0xbf, 0x2b, 0xf8, 0xf4, 0xf0, 0xed, 0x30, 0xe2, 0x2e, 0xfb, 0xeb, 0x0c,
  0x13, 0x0c, 0x03, 0x3b, 0xcc, 0x1a, 0xee, 0xf0, 0x08, 0x01, 0x26, 0x11,
  0xea, 0xed, 0x05, 0x10, 0xc6, 0xf7, 0xe6, 0x05, 0xa5, 0xd2, 0xe3, 0xe8,
  0xd8, 0xe2, 0x03, 0x0c, 0x01, 0xdd, 0xdb, 0xf0, 0xf2, 0x1a, 0xda, 0x19,
  0xf2, 0xe2, 0xd6, 0x09, 0xe6, 0x19, 0xf4, 0xec, 0xee, 0xdb, 0x07, 0xf3,
  0x0b, 0xdc, 0x03, 0xff, 0xf7, 0xef, 0xf8, 0xfb, 0xfb, 0xdf, 0xdd, 0xe5,
  0x04, 0xe1, 0xe9, 0xed, 0xfe, 0xd7, 0x16, 0x0c, 0x07, 0xd5, 0xeb, 0xff,
  0xe8, 0x2b, 0xf5, 0x08, 0xe2, 0xf6, 0xda, 0xf5, 0x00, 0xeb, 0x0c, 0x05,
  0xfb, 0x07, 0xfa, 0x00, 0x17, 0x1a, 0xda, 0xe5, 0x11, 0x0d, 0x11, 0x07,
  0xf9, 0x01, 0xf6, 0xe9, 0x06, 0x06, 0x03, 0xf2, 0x1a, 0x1d, 0xee, 0xe5,
  0xee, 0x28, 0xfa, 0xf0, 0xf3, 0xe8, 0x19, 0xe6, 0x0b, 0x1e, 0xfa, 0x01,
  0x1a, 0x28, 0xf9, 0x08, 0xfc, 0x04, 0xfc, 0xe3, 0xe9, 0xf8, 0x01, 0xd3,
  0xe0, 0xef, 0xf4, 0x2d, 0xde, 0xfd, 0xff, 0xff, 0x04, 0x00, 0x00, 0x00,
  0x20, 0x00, 0x00, 0x00, 0x8f, 0xe2, 0x13, 0xbf, 0x78, 0x4a, 0x85, 0x3e,
  0x4c, 0x94, 0x1d, 0xc0, 0x2f, 0xe6, 0xba, 0x3e, 0x58, 0x08, 0x0f, 0xc0,
  0x96, 0xbb, 0x09, 0xc0, 0x2f, 0xa7, 0x1c, 0xc0, 0x06, 0xdb, 0x0e, 0xc0,
  0x0a, 0xfe, 0xff, 0xff, 0x04, 0x00, 0x00, 0x00, 0x40, 0x00, 0x00, 0x00,
  0x4e, 0x7c, 0x9d, 0xbf, 0x84, 0xa2, 0x8d, 0xbf, 0x4a, 0x85, 0x8f, 0xbe,
  0x7e, 0xc0, 0xf3, 0xbd, 0x08, 0x70, 0x5f, 0xbe, 0xa5, 0x0c, 0x15, 0x3f,
  0x3f, 0xc9, 0xe3, 0x3e, 0xa0, 0x2e, 0xcf, 0xbd, 0x19, 0x35, 0x46, 0x3d,
  0x53, 0x12, 0x79, 0x3f, 0xb8, 0x93, 0xd2, 0xbf, 0x80, 0x9e, 0x1a, 0xbe,
  0x5c, 0xb2, 0x9e, 0x3e, 0x6a, 0xf9, 0x92, 0xbf, 0x05, 0x96, 0xa8, 0xbf,
  0x33, 0x69, 0x4e, 0xbe, 0x56, 0xfe, 0xff, 0xff, 0x04, 0x00, 0x00, 0x00,
  0x0c, 0x00, 0x00, 0x00, 0xf4, 0x11, 0xa1, 0x3f, 0x5b, 0xb6, 0x3b, 0xc0,
  0xd1, 0xfe, 0xdd, 0x3e, 0x6e, 0xfe, 0xff, 0xff, 0x04, 0x00, 0x00, 0x00,
  0xc0, 0x00, 0x00, 0x00, 0x18, 0x58, 0xa1, 0x3c, 0x3d, 0x7e, 0x6b, 0xbe,
  0xde, 0x09, 0x7b, 0x3e, 0x23, 0x02, 0x37, 0x3e, 0xe2, 0x84, 0xaa, 0xbe,
  0xfb, 0x16, 0x86, 0xbc, 0xf0, 0xee, 0x29, 0x3e, 0xaa, 0xdd, 0xd0, 0xbd,
  0xff, 0xc3, 0x0e, 0xbe, 0xf4, 0xc6, 0x4b, 0xbe, 0x43, 0xcb, 0x95, 0xbe,
  0x46, 0xb8, 0x99, 0xbe, 0x89, 0x59, 0x11, 0xbe, 0xb6, 0xc2, 0x44, 0xbe,
  0x8c, 0x6b, 0x11, 0x3e, 0x3f, 0x66, 0x78, 0x3e, 0x07, 0x66, 0xbf, 0xbc,
  0x2a, 0xe4, 0x40, 0xbe, 0xc8, 0xe1, 0x88, 0x3e, 0x6f, 0x57, 0x2c, 0x3e,
  0xc0, 0xa0, 0x88, 0xbe, 0xed, 0x87, 0x52, 0x3c, 0xb3, 0xc5, 0x45, 0x3e,
  0xa4, 0xa7, 0x13, 0xbe, 0x76, 0xe9, 0xc0, 0xbd, 0x5a, 0xbd, 0x78, 0xbe,
  0xb7, 0xd3, 0x8f, 0xbe, 0x54, 0x7a, 0x90, 0xbe, 0x9a, 0xe4, 0xc2, 0xbd,
  0x9d, 0x8d, 0x42, 0xbe, 0xfd, 0xae, 0x10, 0x3e, 0x3a, 0x1a, 0x8b, 0x3e,
  0x05, 0x66, 0xac, 0x3d, 0xb4, 0xad, 0x5d, 0xbe, 0x51, 0x45, 0x1d, 0x3e,
  0xe3, 0xeb, 0x8c, 0x3e, 0x12, 0xa5, 0x7f, 0xbe, 0xa9, 0xc0, 0x01, 0x3d,
  0xca, 0x67, 0x7b, 0x3e, 0xc3, 0xb4, 0x2e, 0xbe, 0xfd, 0xc9, 0x18, 0xbe,
  0x59, 0xc9, 0x9a, 0xbe, 0xb1, 0x6c, 0x78, 0xbe, 0xa0, 0x3d, 0x82, 0xbe,
  0xfc, 0x65, 0x1f, 0xbe, 0xdb, 0x63, 0x00, 0xbe, 0xeb, 0xfe, 0x30, 0x3e,
  0xa3, 0x68, 0x39, 0x3e, 0x3a, 0xff, 0xff, 0xff, 0x04, 0x00, 0x00, 0x00,
  0x40, 0x00, 0x00, 0x00, 0x31, 0xfc, 0x44, 0x3f, 0x59, 0xe6, 0xb8, 0xbf,
  0xc2, 0xdc, 0x9e, 0xbf, 0xea, 0x59, 0x57, 0x3f, 0x89, 0x58, 0xaf, 0x3f,
  0x3d, 0x11, 0xbc, 0x3e, 0x4d, 0x25, 0x8b, 0x3f, 0x37, 0xa5, 0x14, 0xbf,
  0x0d, 0xa4, 0x33, 0xbf, 0xb9, 0x17, 0xc3, 0xbe, 0xcd, 0x92, 0x83, 0xbf,
  0x8d, 0x95, 0x30, 0x3f, 0x37, 0x44, 0x9a, 0xbf, 0x31, 0x6a, 0x5d, 0xbf,
  0x4d, 0x3a, 0x7b, 0xbf, 0x9b, 0x82, 0x68, 0xbf, 0x40, 0xf8, 0xff, 0xff,
  0x0f, 0x00, 0x00, 0x00, 0x54, 0x4f, 0x43, 0x4f, 0x20, 0x43, 0x6f, 0x6e,
  0x76, 0x65, 0x72, 0x74, 0x65, 0x64, 0x2e, 0x00, 0x01, 0x00, 0x00, 0x00,
  0x10, 0x00, 0x00, 0x00, 0x0c, 0x00, 0x14, 0x00, 0x04, 0x00, 0x08, 0x00,
  0x0c, 0x00, 0x10, 0x00, 0x0c, 0x00, 0x00, 0x00, 0x4c, 0x02, 0x00, 0x00,
  0x40, 0x02, 0x00, 0x00, 0x34, 0x02, 0x00, 0x00, 0x04, 0x00, 0x00, 0x00,
  0x07, 0x00, 0x00, 0x00, 0xd4, 0x01, 0x00, 0x00, 0x70, 0x01, 0x00, 0x00,
  0x24, 0x01, 0x00, 0x00, 0xc4, 0x00, 0x00, 0x00, 0x88, 0x00, 0x00, 0x00,
  0x40, 0x00, 0x00, 0x00, 0x04, 0x00, 0x00, 0x00, 0x56, 0xfe, 0xff, 0xff,
  0x00, 0x00, 0x00, 0x09, 0x04, 0x00, 0x00, 0x00, 0x24, 0x00, 0x00, 0x00,
  0x18, 0x00, 0x00, 0x00, 0x0c, 0x00, 0x00, 0x00, 0x00, 0x00, 0x06, 0x00,
  0x08, 0x00, 0x04, 0x00, 0x06, 0x00, 0x00, 0x00, 0x00, 0x00, 0x80, 0x3f,
  0x01, 0x00, 0x00, 0x00, 0x00, 0x00, 0x00, 0x00, 0x01, 0x00, 0x00, 0x00,
  0x0b, 0x00, 0x00, 0x00, 0xca, 0xff, 0xff, 0xff, 0x00, 0x00, 0x00, 0x08,
  0x02, 0x00, 0x00, 0x00, 0x18, 0x00, 0x00, 0x00, 0x0c, 0x00, 0x00, 0x00,
  0x04, 0x00, 0x00, 0x00, 0xf0, 0xf8, 0xff, 0xff, 0x01, 0x00, 0x00, 0x00,
  0x0b, 0x00, 0x00, 0x00, 0x03, 0x00, 0x00, 0x00, 0x0a, 0x00, 0x00, 0x00,
  0x0c, 0x00, 0x00, 0x00, 0x0d, 0x00, 0x00, 0x00, 0x00, 0x00, 0x0e, 0x00,
  0x18, 0x00, 0x08, 0x00, 0x0c, 0x00, 0x10, 0x00, 0x07, 0x00, 0x14, 0x00,
  0x0e, 0x00, 0x00, 0x00, 0x00, 0x00, 0x00, 0x08, 0x02, 0x00, 0x00, 0x00,
  0x1c, 0x00, 0x00, 0x00, 0x10, 0x00, 0x00, 0x00, 0x04, 0x00, 0x00, 0x00,
  0xf6, 0xf8, 0xff, 0xff, 0x00, 0x00, 0x00, 0x01, 0x01, 0x00, 0x00, 0x00,
  0x0a, 0x00, 0x00, 0x00, 0x03, 0x00, 0x00, 0x00, 0x0f, 0x00, 0x00, 0x00,
  0x08, 0x00, 0x00, 0x00, 0x09, 0x00, 0x00, 0x00, 0x0a, 0xff, 0xff, 0xff,
  0x00, 0x00, 0x00, 0x05, 0x03, 0x00, 0x00, 0x00, 0x38, 0x00, 0x00, 0x00,
  0x2c, 0x00, 0x00, 0x00, 0x14, 0x00, 0x00, 0x00, 0x00, 0x00, 0x0e, 0x00,
  0x14, 0x00, 0x00, 0x00, 0x04, 0x00, 0x08, 0x00, 0x0c, 0x00, 0x10, 0x00,
  0x0e, 0x00, 0x00, 0x00, 0x01, 0x00, 0x00, 0x00, 0x03, 0x00, 0x00, 0x00,
  0x01, 0x00, 0x00, 0x00, 0x03, 0x00, 0x00, 0x00, 0x01, 0x00, 0x00, 0x00,
  0x0f, 0x00, 0x00, 0x00, 0x01, 0x00, 0x00, 0x00, 0x07, 0x00, 0x00, 0x00,
  0x00, 0x00, 0x0e, 0x00, 0x14, 0x00, 0x00, 0x00, 0x08, 0x00, 0x0c, 0x00,
  0x07, 0x00, 0x10, 0x00, 0x0e, 0x00, 0x00, 0x00, 0x00, 0x00, 0x00, 0x01,
  0x30, 0x00, 0x00, 0x00, 0x24, 0x00, 0x00, 0x00, 0x10, 0x00, 0x00, 0x00,
  0x0c, 0x00, 0x10, 0x00, 0x00, 0x00, 0x08, 0x00, 0x0c, 0x00, 0x07, 0x00,
  0x0c, 0x00, 0x00, 0x00, 0x00, 0x00, 0x00, 0x01, 0x01, 0x00, 0x00, 0x00,
  0x01, 0x00, 0x00, 0x00, 0x01, 0x00, 0x00, 0x00, 0x07, 0x00, 0x00, 0x00,
  0x03, 0x00, 0x00, 0x00, 0x0e, 0x00, 0x00, 0x00, 0x05, 0x00, 0x00, 0x00,
  0x06, 0x00, 0x00, 0x00, 0xae, 0xff, 0xff, 0xff, 0x00, 0x00, 0x00, 0x05,
  0x03, 0x00, 0x00, 0x00, 0x3c, 0x00, 0x00, 0x00, 0x30, 0x00, 0x00, 0x00,
  0x14, 0x00, 0x00, 0x00, 0x00, 0x00, 0x0e, 0x00, 0x18, 0x00, 0x07, 0x00,
  0x08, 0x00, 0x0c, 0x00, 0x10, 0x00, 0x14, 0x00, 0x0e, 0x00, 0x00, 0x00,
  0x00, 0x00, 0x00, 0x01, 0x03, 0x00, 0x00, 0x00, 0x03, 0x00, 0x00, 0x00,
  0x03, 0x00, 0x00, 0x00, 0x03, 0x00, 0x00, 0x00, 0x01, 0x00, 0x00, 0x00,
  0x0e, 0x00, 0x00, 0x00, 0x01, 0x00, 0x00, 0x00, 0x04, 0x00, 0x00, 0x00,
  0x00, 0x00, 0x0e, 0x00, 0x1a, 0x00, 0x08, 0x00, 0x0c, 0x00, 0x10, 0x00,
  0x07, 0x00, 0x14, 0x00, 0x0e, 0x00, 0x00, 0x00, 0x00, 0x00, 0x00, 0x02,
  0x01, 0x00, 0x00, 0x00, 0x38, 0x00, 0x00, 0x00, 0x2c, 0x00, 0x00, 0x00,
  0x14, 0x00, 0x00, 0x00, 0x00, 0x00, 0x0e, 0x00, 0x14, 0x00, 0x00, 0x00,
  0x08, 0x00, 0x0c, 0x00, 0x10, 0x00, 0x07, 0x00, 0x0e, 0x00, 0x00, 0x00,
  0x00, 0x00, 0x00, 0x01, 0x01, 0x00, 0x00, 0x00, 0x01, 0x00, 0x00, 0x00,
  0x08, 0x00, 0x00, 0x00, 0x01, 0x00, 0x00, 0x00, 0x04, 0x00, 0x00, 0x00,
  0x03, 0x00, 0x00, 0x00, 0x01, 0x00, 0x00, 0x00, 0x02, 0x00, 0x00, 0x00,
  0x03, 0x00, 0x00, 0x00, 0x01, 0x00, 0x00, 0x00, 0x00, 0x00, 0x00, 0x00,
  0x01, 0x00, 0x00, 0x00, 0x01, 0x00, 0x00, 0x00, 0x10, 0x00, 0x00, 0x00,
  0x2c, 0x05, 0x00, 0x00, 0xb8, 0x04, 0x00, 0x00, 0x5c, 0x04, 0x00, 0x00,
  0x14, 0x04, 0x00, 0x00, 0xc8, 0x03, 0x00, 0x00, 0x68, 0x03, 0x00, 0x00,
  0x20, 0x03, 0x00, 0x00, 0xd0, 0x02, 0x00, 0x00, 0x40, 0x02, 0x00, 0x00,
  0xe8, 0x01, 0x00, 0x00, 0xa4, 0x01, 0x00, 0x00, 0x5c, 0x01, 0x00, 0x00,
  0xfc, 0x00, 0x00, 0x00, 0xb4, 0x00, 0x00, 0x00, 0x5c, 0x00, 0x00, 0x00,
  0x04, 0x00, 0x00, 0x00, 0x22, 0xfb, 0xff, 0xff, 0x3c, 0x00, 0x00, 0x00,
  0x0a, 0x00, 0x00, 0x00, 0x0c, 0x00, 0x00, 0x00, 0x04, 0x00, 0x00, 0x00,
  0x14, 0xfb, 0xff, 0xff, 0x22, 0x00, 0x00, 0x00, 0x73, 0x65, 0x71, 0x75,
  0x65, 0x6e, 0x74, 0x69, 0x61, 0x6c, 0x2f, 0x6d, 0x61, 0x78, 0x5f, 0x70,
  0x6f, 0x6f, 0x6c, 0x69, 0x6e, 0x67, 0x32, 0x64, 0x5f, 0x31, 0x2f, 0x4d,
  0x61, 0x78, 0x50, 0x6f, 0x6f, 0x6c, 0x00, 0x00, 0x04, 0x00, 0x00, 0x00,
  0x01, 0x00, 0x00, 0x00, 0x07, 0x00, 0x00, 0x00, 0x01, 0x00, 0x00, 0x00,
  0x10, 0x00, 0x00, 0x00, 0x76, 0xfb, 0xff, 0xff, 0x3c, 0x00, 0x00, 0x00,
  0x10, 0x00, 0x00, 0x00, 0x0c, 0x00, 0x00, 0x00, 0x04, 0x00, 0x00, 0x00,
  0x68, 0xfb, 0xff, 0xff, 0x20, 0x00, 0x00, 0x00, 0x73, 0x65, 0x71, 0x75,
  0x65, 0x6e, 0x74, 0x69, 0x61, 0x6c, 0x2f, 0x6d, 0x61, 0x78, 0x5f, 0x70,
  0x6f, 0x6f, 0x6c, 0x69, 0x6e, 0x67, 0x32, 0x64, 0x2f, 0x4d, 0x61, 0x78,
  0x50, 0x6f, 0x6f, 0x6c, 0x00, 0x00, 0x00, 0x00, 0x04, 0x00, 0x00, 0x00,
  0x01, 0x00, 0x00, 0x00, 0x15, 0x00, 0x00, 0x00, 0x01, 0x00, 0x00, 0x00,
  0x08, 0x00, 0x00, 0x00, 0xca, 0xfb, 0xff, 0xff, 0x38, 0x00, 0x00, 0x00,
  0x03, 0x00, 0x00, 0x00, 0x0c, 0x00, 0x00, 0x00, 0x04, 0x00, 0x00, 0x00,
  0xbc, 0xfb, 0xff, 0xff, 0x1e, 0x00, 0x00, 0x00, 0x73, 0x65, 0x71, 0x75,
  0x65, 0x6e, 0x74, 0x69, 0x61, 0x6c, 0x2f, 0x64, 0x65, 0x6e, 0x73, 0x65,
  0x5f, 0x31, 0x2f, 0x4d, 0x61, 0x74, 0x4d, 0x75, 0x6c, 0x5f, 0x62, 0x69,
  0x61, 0x73, 0x00, 0x00, 0x01, 0x00, 0x00, 0x00, 0x03, 0x00, 0x00, 0x00,
  0x0e, 0xfc, 0xff, 0xff, 0x4c, 0x00, 0x00, 0x00, 0x02, 0x00, 0x00, 0x00,
  0x0c, 0x00, 0x00, 0x00, 0x04, 0x00, 0x00, 0x00, 0x00, 0xfc, 0xff, 0xff,
  0x32, 0x00, 0x00, 0x00, 0x73, 0x65, 0x71, 0x75, 0x65, 0x6e, 0x74, 0x69,
  0x61, 0x6c, 0x2f, 0x64, 0x65, 0x6e, 0x73, 0x65, 0x5f, 0x31, 0x2f, 0x4d,
  0x61, 0x74, 0x4d, 0x75, 0x6c, 0x2f, 0x52, 0x65, 0x61, 0x64, 0x56, 0x61,
  0x72, 0x69, 0x61, 0x62, 0x6c, 0x65, 0x4f, 0x70, 0x2f, 0x74, 0x72, 0x61,
  0x6e, 0x73, 0x70, 0x6f, 0x73, 0x65, 0x00, 0x00, 0x02, 0x00, 0x00, 0x00,
  0x03, 0x00, 0x00, 0x00, 0x10, 0x00, 0x00, 0x00, 0x6a, 0xfc, 0xff, 0xff,
  0x34, 0x00, 0x00, 0x00, 0x08, 0x00, 0x00, 0x00, 0x0c, 0x00, 0x00, 0x00,
  0x04, 0x00, 0x00, 0x00, 0x5c, 0xfc, 0xff, 0xff, 0x1a, 0x00, 0x00, 0x00,
  0x73, 0x65, 0x71, 0x75, 0x65, 0x6e, 0x74, 0x69, 0x61, 0x6c, 0x2f, 0x64,
  0x65, 0x6e, 0x73, 0x65, 0x5f, 0x31, 0x2f, 0x42, 0x69, 0x61, 0x73, 0x41,
  0x64, 0x64, 0x00, 0x00, 0x02, 0x00, 0x00, 0x00, 0x01, 0x00, 0x00, 0x00,
  0x03, 0x00, 0x00, 0x00, 0xae, 0xfc, 0xff, 0xff, 0x30, 0x00, 0x00, 0x00,
  0x09, 0x00, 0x00, 0x00, 0x0c, 0x00, 0x00, 0x00, 0x04, 0x00, 0x00, 0x00,
  0xa0, 0xfc, 0xff, 0xff, 0x15, 0x00, 0x00, 0x00, 0x73, 0x65, 0x71, 0x75,
  0x65, 0x6e, 0x74, 0x69, 0x61, 0x6c, 0x2f, 0x64, 0x65, 0x6e, 0x73, 0x65,
  0x2f, 0x52, 0x65, 0x6c, 0x75, 0x00, 0x00, 0x00, 0x02, 0x00, 0x00, 0x00,
  0x01, 0x00, 0x00, 0x00, 0x10, 0x00, 0x00, 0x00, 0xee, 0xfc, 0xff, 0xff,
  0x38, 0x00, 0x00, 0x00, 0x01, 0x00, 0x00, 0x00, 0x0c, 0x00, 0x00, 0x00,
  0x04, 0x00, 0x00, 0x00, 0xe0, 0xfc, 0xff, 0xff, 0x1c, 0x00, 0x00, 0x00,
  0x73, 0x65, 0x71, 0x75, 0x65, 0x6e, 0x74, 0x69, 0x61, 0x6c, 0x2f, 0x64,
  0x65, 0x6e, 0x73, 0x65, 0x2f, 0x4d, 0x61, 0x74, 0x4d, 0x75, 0x6c, 0x5f,
  0x62, 0x69, 0x61, 0x73, 0x00, 0x00, 0x00, 0x00, 0x01, 0x00, 0x00, 0x00,
  0x10, 0x00, 0x00, 0x00, 0x00, 0x00, 0x0e, 0x00, 0x18, 0x00, 0x08, 0x00,
  0x07, 0x00, 0x0c, 0x00, 0x10, 0x00, 0x14, 0x00, 0x0e, 0x00, 0x00, 0x00,
  0x00, 0x00, 0x00, 0x09, 0x78, 0x00, 0x00, 0x00, 0x06, 0x00, 0x00, 0x00,
  0x38, 0x00, 0x00, 0x00, 0x10, 0x00, 0x00, 0x00, 0x0c, 0x00, 0x0c, 0x00,
  0x00, 0x00, 0x00, 0x00, 0x04, 0x00, 0x08, 0x00, 0x0c, 0x00, 0x00, 0x00,
  0x18, 0x00, 0x00, 0x00, 0x04, 0x00, 0x00, 0x00, 0x01, 0x00, 0x00, 0x00,
  0x00, 0x00, 0x00, 0x00, 0x00, 0x00, 0x00, 0x00, 0x00, 0x00, 0x00, 0x00,
  0x01, 0x00, 0x00, 0x00, 0x5e, 0x90, 0xdc, 0x3b, 0x30, 0x00, 0x00, 0x00,
  0x73, 0x65, 0x71, 0x75, 0x65, 0x6e, 0x74, 0x69, 0x61, 0x6c, 0x2f, 0x64,
  0x65, 0x6e, 0x73, 0x65, 0x2f, 0x4d, 0x61, 0x74, 0x4d, 0x75, 0x6c, 0x2f,
  0x52, 0x65, 0x61, 0x64, 0x56, 0x61, 0x72, 0x69, 0x61, 0x62, 0x6c, 0x65,
  0x4f, 0x70, 0x2f, 0x74, 0x72, 0x61, 0x6e, 0x73, 0x70, 0x6f, 0x73, 0x65,
  0x00, 0x00, 0x00, 0x00, 0x02, 0x00, 0x00, 0x00, 0x10, 0x00, 0x00, 0x00,
  0x70, 0x00, 0x00, 0x00, 0xce, 0xfd, 0xff, 0xff, 0x34, 0x00, 0x00, 0x00,
  0x0b, 0x00, 0x00, 0x00, 0x0c, 0x00, 0x00, 0x00, 0x04, 0x00, 0x00, 0x00,
  0xc0, 0xfd, 0xff, 0xff, 0x18, 0x00, 0x00, 0x00, 0x73, 0x65, 0x71, 0x75,
  0x65, 0x6e, 0x74, 0x69, 0x61, 0x6c, 0x2f, 0x63, 0x6f, 0x6e, 0x76, 0x32,
  0x64, 0x5f, 0x31, 0x2f, 0x52, 0x65, 0x6c, 0x75, 0x00, 0x00, 0x00, 0x00,
  0x04, 0x00, 0x00, 0x00, 0x01, 0x00, 0x00, 0x00, 0x15, 0x00, 0x00, 0x00,
  0x01, 0x00, 0x00, 0x00, 0x10, 0x00, 0x00, 0x00, 0x1a, 0xfe, 0xff, 0xff,
  0x38, 0x00, 0x00, 0x00, 0x04, 0x00, 0x00, 0x00, 0x0c, 0x00, 0x00, 0x00,
  0x04, 0x00, 0x00, 0x00, 0x0c, 0xfe, 0xff, 0xff, 0x1f, 0x00, 0x00, 0x00,
  0x73, 0x65, 0x71, 0x75, 0x65, 0x6e, 0x74, 0x69, 0x61, 0x6c, 0x2f, 0x63,
  0x6f, 0x6e, 0x76, 0x32, 0x64, 0x5f, 0x31, 0x2f, 0x43, 0x6f, 0x6e, 0x76,
  0x32, 0x44, 0x5f, 0x62, 0x69, 0x61, 0x73, 0x00, 0x01, 0x00, 0x00, 0x00,
  0x10, 0x00, 0x00, 0x00, 0x5e, 0xfe, 0xff, 0xff, 0x44, 0x00, 0x00, 0x00,
  0x0d, 0x00, 0x00, 0x00, 0x0c, 0x00, 0x00, 0x00, 0x04, 0x00, 0x00, 0x00,
  0x50, 0xfe, 0xff, 0xff, 0x29, 0x00, 0x00, 0x00, 0x73, 0x65, 0x71, 0x75,
  0x65, 0x6e, 0x74, 0x69, 0x61, 0x6c, 0x2f, 0x63, 0x6f, 0x6e, 0x76, 0x32,
  0x64, 0x5f, 0x31, 0x2f, 0x43, 0x6f, 0x6e, 0x76, 0x32, 0x44, 0x2f, 0x52,
  0x65, 0x61, 0x64, 0x56, 0x61, 0x72, 0x69, 0x61, 0x62, 0x6c, 0x65, 0x4f,
  0x70, 0x00, 0x00, 0x00, 0x04, 0x00, 0x00, 0x00, 0x10, 0x00, 0x00, 0x00,
  0x04, 0x00, 0x00, 0x00, 0x01, 0x00, 0x00, 0x00, 0x08, 0x00, 0x00, 0x00,
  0xba, 0xfe, 0xff, 0xff, 0x30, 0x00, 0x00, 0x00, 0x0f, 0x00, 0x00, 0x00,
  0x0c, 0x00, 0x00, 0x00, 0x04, 0x00, 0x00, 0x00, 0xac, 0xfe, 0xff, 0xff,
  0x16, 0x00, 0x00, 0x00, 0x73, 0x65, 0x71, 0x75, 0x65, 0x6e, 0x74, 0x69,
  0x61, 0x6c, 0x2f, 0x63, 0x6f, 0x6e, 0x76, 0x32, 0x64, 0x2f, 0x52, 0x65,
  0x6c, 0x75, 0x00, 0x00, 0x04, 0x00, 0x00, 0x00, 0x01, 0x00, 0x00, 0x00,
  0x40, 0x00, 0x00, 0x00, 0x03, 0x00, 0x00, 0x00, 0x08, 0x00, 0x00, 0x00,
  0x02, 0xff, 0xff, 0xff, 0x38, 0x00, 0x00, 0x00, 0x05, 0x00, 0x00, 0x00,
  0x0c, 0x00, 0x00, 0x00, 0x04, 0x00, 0x00, 0x00, 0xf4, 0xfe, 0xff, 0xff,
  0x1d, 0x00, 0x00, 0x00, 0x73, 0x65, 0x71, 0x75, 0x65, 0x6e, 0x74, 0x69,
  0x61, 0x6c, 0x2f, 0x63, 0x6f, 0x6e, 0x76, 0x32, 0x64, 0x2f, 0x43, 0x6f,
  0x6e, 0x76, 0x32, 0x44, 0x5f, 0x62, 0x69, 0x61, 0x73, 0x00, 0x00, 0x00,
  0x01, 0x00, 0x00, 0x00, 0x08, 0x00, 0x00, 0x00, 0x46, 0xff, 0xff, 0xff,
  0x40, 0x00, 0x00, 0x00, 0x0e, 0x00, 0x00, 0x00, 0x0c, 0x00, 0x00, 0x00,
  0x04, 0x00, 0x00, 0x00, 0x38, 0xff, 0xff, 0xff, 0x27, 0x00, 0x00, 0x00,
  0x73, 0x65, 0x71, 0x75, 0x65, 0x6e, 0x74, 0x69, 0x61, 0x6c, 0x2f, 0x63,
  0x6f, 0x6e, 0x76, 0x32, 0x64, 0x2f, 0x43, 0x6f, 0x6e, 0x76, 0x32, 0x44,
  0x2f, 0x52, 0x65, 0x61, 0x64, 0x56, 0x61, 0x72, 0x69, 0x61, 0x62, 0x6c,
  0x65, 0x4f, 0x70, 0x00, 0x04, 0x00, 0x00, 0x00, 0x01, 0x00, 0x00, 0x00,
  0x04, 0x00, 0x00, 0x00, 0x03, 0x00, 0x00, 0x00, 0x08, 0x00, 0x00, 0x00,
  0x9e, 0xff, 0xff, 0xff, 0x48, 0x00, 0x00, 0x00, 0x0c, 0x00, 0x00, 0x00,
  0x2c, 0x00, 0x00, 0x00, 0x0c, 0x00, 0x00, 0x00, 0x08, 0x00, 0x0c, 0x00,
  0x04, 0x00, 0x08, 0x00, 0x08, 0x00, 0x00, 0x00, 0x10, 0x00, 0x00, 0x00,
  0x04, 0x00, 0x00, 0x00, 0x01, 0x00, 0x00, 0x00, 0x00, 0x00, 0x7f, 0x43,
  0x01, 0x00, 0x00, 0x00, 0x00, 0x00, 0x00, 0x00, 0x0c, 0x00, 0x00, 0x00,
  0x63, 0x6f, 0x6e, 0x76, 0x32, 0x64, 0x5f, 0x69, 0x6e, 0x70, 0x75, 0x74,
  0x00, 0x00, 0x00, 0x00, 0x04, 0x00, 0x00, 0x00, 0x01, 0x00, 0x00, 0x00,
  0x40, 0x00, 0x00, 0x00, 0x03, 0x00, 0x00, 0x00, 0x01, 0x00, 0x00, 0x00,
  0x00, 0x00, 0x0e, 0x00, 0x14, 0x00, 0x04, 0x00, 0x00, 0x00, 0x08, 0x00,
  0x0c, 0x00, 0x10, 0x00, 0x0e, 0x00, 0x00, 0x00, 0x28, 0x00, 0x00, 0x00,
  0x07, 0x00, 0x00, 0x00, 0x10, 0x00, 0x00, 0x00, 0x08, 0x00, 0x00, 0x00,
  0x04, 0x00, 0x04, 0x00, 0x04, 0x00, 0x00, 0x00, 0x08, 0x00, 0x00, 0x00,
  0x49, 0x64, 0x65, 0x6e, 0x74, 0x69, 0x74, 0x79, 0x00, 0x00, 0x00, 0x00,
  0x02, 0x00, 0x00, 0x00, 0x01, 0x00, 0x00, 0x00, 0x03, 0x00, 0x00, 0x00,
  0x05, 0x00, 0x00, 0x00, 0x58, 0x00, 0x00, 0x00, 0x44, 0x00, 0x00, 0x00,
  0x2c, 0x00, 0x00, 0x00, 0x18, 0x00, 0x00, 0x00, 0x0c, 0x00, 0x00, 0x00,
  0x00, 0x00, 0x06, 0x00, 0x08, 0x00, 0x07, 0x00, 0x06, 0x00, 0x00, 0x00,
  0x00, 0x00, 0x00, 0x19, 0xe2, 0xff, 0xff, 0xff, 0x00, 0x11, 0x0a, 0x00,
  0x0e, 0x00, 0x07, 0x00, 0x00, 0x00, 0x08, 0x00, 0x0a, 0x00, 0x00, 0x00,
  0x00, 0x00, 0x00, 0x09, 0x03, 0x00, 0x00, 0x00, 0x00, 0x00, 0x06, 0x00,
  0x06, 0x00, 0x05, 0x00, 0x06, 0x00, 0x00, 0x00, 0x00, 0x04, 0x0a, 0x00,
  0x0c, 0x00, 0x07, 0x00, 0x00, 0x00, 0x08, 0x00, 0x0a, 0x00, 0x00, 0x00,
  0x00, 0x00, 0x00, 0x03, 0x02, 0x00, 0x00, 0x00
};
unsigned int _home_ee2405_ee2405_mbed07_model_model_quantized_tflite_len = 7040;
